// Lab 2 - Track W - model.cpp  (exported from weather-training.ipynb)
#include "model.h"

alignas(8) const unsigned char g_model[] = {
  0x20,  0x00,  0x00,  0x00,  0x54,  0x46,  0x4c,  0x33,  0x00,  0x00,  0x00,  0x00,
  0x14,  0x00,  0x20,  0x00,  0x1c,  0x00,  0x18,  0x00,  0x14,  0x00,  0x10,  0x00,
  0x0c,  0x00,  0x00,  0x00,  0x08,  0x00,  0x04,  0x00,  0x14,  0x00,  0x00,  0x00,
  0x1c,  0x00,  0x00,  0x00,  0x8c,  0x00,  0x00,  0x00,  0xe4,  0x00,  0x00,  0x00,
  0xb8,  0x03,  0x00,  0x00,  0xc8,  0x03,  0x00,  0x00,  0xc0,  0x0c,  0x00,  0x00,
  0x03,  0x00,  0x00,  0x00,  0x01,  0x00,  0x00,  0x00,  0x04,  0x00,  0x00,  0x00,
  0xfa,  0xfb,  0xff,  0xff,  0x0c,  0x00,  0x00,  0x00,  0x1c,  0x00,  0x00,  0x00,
  0x3c,  0x00,  0x00,  0x00,  0x0f,  0x00,  0x00,  0x00,  0x73,  0x65,  0x72,  0x76,
  0x69,  0x6e,  0x67,  0x5f,  0x64,  0x65,  0x66,  0x61,  0x75,  0x6c,  0x74,  0x00,
  0x01,  0x00,  0x00,  0x00,  0x04,  0x00,  0x00,  0x00,  0x90,  0xff,  0xff,  0xff,
  0x0a,  0x00,  0x00,  0x00,  0x04,  0x00,  0x00,  0x00,  0x08,  0x00,  0x00,  0x00,
  0x6f,  0x75,  0x74,  0x70,  0x75,  0x74,  0x5f,  0x30,  0x00,  0x00,  0x00,  0x00,
  0x01,  0x00,  0x00,  0x00,  0x04,  0x00,  0x00,  0x00,  0xce,  0xfc,  0xff,  0xff,
  0x04,  0x00,  0x00,  0x00,  0x0c,  0x00,  0x00,  0x00,  0x6b,  0x65,  0x72,  0x61,
  0x73,  0x5f,  0x74,  0x65,  0x6e,  0x73,  0x6f,  0x72,  0x00,  0x00,  0x00,  0x00,
  0x02,  0x00,  0x00,  0x00,  0x34,  0x00,  0x00,  0x00,  0x04,  0x00,  0x00,  0x00,
  0xdc,  0xff,  0xff,  0xff,  0x0d,  0x00,  0x00,  0x00,  0x04,  0x00,  0x00,  0x00,
  0x13,  0x00,  0x00,  0x00,  0x43,  0x4f,  0x4e,  0x56,  0x45,  0x52,  0x53,  0x49,
  0x4f,  0x4e,  0x5f,  0x4d,  0x45,  0x54,  0x41,  0x44,  0x41,  0x54,  0x41,  0x00,
  0x08,  0x00,  0x0c,  0x00,  0x08,  0x00,  0x04,  0x00,  0x08,  0x00,  0x00,  0x00,
  0x0c,  0x00,  0x00,  0x00,  0x04,  0x00,  0x00,  0x00,  0x13,  0x00,  0x00,  0x00,
  0x6d,  0x69,  0x6e,  0x5f,  0x72,  0x75,  0x6e,  0x74,  0x69,  0x6d,  0x65,  0x5f,
  0x76,  0x65,  0x72,  0x73,  0x69,  0x6f,  0x6e,  0x00,  0x0e,  0x00,  0x00,  0x00,
  0xd0,  0x02,  0x00,  0x00,  0xc8,  0x02,  0x00,  0x00,  0xb4,  0x02,  0x00,  0x00,
  0x94,  0x02,  0x00,  0x00,  0x64,  0x02,  0x00,  0x00,  0xd4,  0x01,  0x00,  0x00,
  0x84,  0x01,  0x00,  0x00,  0xb4,  0x00,  0x00,  0x00,  0xac,  0x00,  0x00,  0x00,
  0xa4,  0x00,  0x00,  0x00,  0x9c,  0x00,  0x00,  0x00,  0x94,  0x00,  0x00,  0x00,
  0x74,  0x00,  0x00,  0x00,  0x04,  0x00,  0x00,  0x00,  0x82,  0xfd,  0xff,  0xff,
  0x04,  0x00,  0x00,  0x00,  0x60,  0x00,  0x00,  0x00,  0x0c,  0x00,  0x00,  0x00,
  0x08,  0x00,  0x0e,  0x00,  0x08,  0x00,  0x04,  0x00,  0x08,  0x00,  0x00,  0x00,
  0x10,  0x00,  0x00,  0x00,  0x28,  0x00,  0x00,  0x00,  0x00,  0x00,  0x06,  0x00,
  0x08,  0x00,  0x04,  0x00,  0x06,  0x00,  0x00,  0x00,  0x04,  0x00,  0x00,  0x00,
  0x01,  0x00,  0x00,  0x00,  0xeb,  0x03,  0x00,  0x00,  0x0c,  0x00,  0x18,  0x00,
  0x14,  0x00,  0x10,  0x00,  0x0c,  0x00,  0x04,  0x00,  0x0c,  0x00,  0x00,  0x00,
  0x5b,  0x11,  0x69,  0x6e,  0xde,  0x56,  0x28,  0xc8,  0x02,  0x00,  0x00,  0x00,
  0x02,  0x00,  0x00,  0x00,  0x04,  0x00,  0x00,  0x00,  0x06,  0x00,  0x00,  0x00,
  0x32,  0x2e,  0x32,  0x30,  0x2e,  0x30,  0x00,  0x00,  0xee,  0xfd,  0xff,  0xff,
  0x04,  0x00,  0x00,  0x00,  0x10,  0x00,  0x00,  0x00,  0x31,  0x2e,  0x31,  0x34,
  0x2e,  0x30,  0x00,  0x00,  0x00,  0x00,  0x00,  0x00,  0x00,  0x00,  0x00,  0x00,
  0x48,  0xfd,  0xff,  0xff,  0x4c,  0xfd,  0xff,  0xff,  0x50,  0xfd,  0xff,  0xff,
  0x54,  0xfd,  0xff,  0xff,  0x1a,  0xfe,  0xff,  0xff,  0x04,  0x00,  0x00,  0x00,
  0xc0,  0x00,  0x00,  0x00,  0xa9,  0xe3,  0x93,  0x05,  0x5e,  0x03,  0x36,  0xfa,
  0x3d,  0x29,  0x81,  0x54,  0x7f,  0xfd,  0x61,  0xce,  0xe6,  0xfd,  0x40,  0xd4,
  0x14,  0xd8,  0x2b,  0x4a,  0x0d,  0xd7,  0x63,  0x24,  0xfc,  0xc8,  0xf6,  0x0f,
  0xf6,  0x5b,  0x7f,  0xfe,  0x76,  0x7f,  0xa2,  0x6c,  0xd2,  0x35,  0x92,  0xc7,
  0x95,  0x1b,  0xdd,  0x37,  0x04,  0x39,  0xd7,  0x42,  0x21,  0xed,  0x26,  0x3b,
  0x3b,  0x01,  0x7f,  0x32,  0x1b,  0xb2,  0x77,  0x55,  0x45,  0xa9,  0xed,  0x09,
  0x12,  0x7f,  0xba,  0xdc,  0xd4,  0x44,  0x52,  0x21,  0x5f,  0x3a,  0x5f,  0x04,
  0x08,  0xef,  0x7f,  0xef,  0xcf,  0xf4,  0xc9,  0x39,  0x7c,  0xa8,  0x7f,  0x2b,
  0x35,  0xd1,  0x5b,  0x41,  0x0f,  0x3e,  0xd5,  0xf2,  0xba,  0x49,  0xc1,  0x24,
  0x7f,  0xb7,  0x2d,  0xb3,  0x2e,  0xe8,  0xfe,  0x35,  0x56,  0xfa,  0x8b,  0x28,
  0x81,  0xa8,  0x20,  0xbf,  0xdb,  0x30,  0x45,  0xc9,  0xab,  0xfd,  0xd8,  0x21,
  0xbc,  0xe9,  0x28,  0x81,  0xfb,  0xdb,  0xb6,  0xce,  0x9f,  0xb7,  0x31,  0x1e,
  0x1e,  0xf6,  0xf2,  0x7f,  0xb4,  0xca,  0x48,  0x01,  0xfe,  0x50,  0xd7,  0xef,
  0x7f,  0x22,  0x28,  0x1e,  0x08,  0xcb,  0x41,  0x4c,  0xbe,  0xf3,  0x70,  0xdb,
  0x11,  0x2a,  0xd8,  0x81,  0x81,  0x1c,  0x02,  0xcf,  0x48,  0x74,  0x02,  0x11,
  0x06,  0xe0,  0x28,  0x33,  0x41,  0x6e,  0xc5,  0x7f,  0xf0,  0x72,  0x41,  0x0e,
  0x22,  0xeb,  0x0a,  0xd7,  0xe6,  0xfe,  0xff,  0xff,  0x04,  0x00,  0x00,  0x00,
  0x40,  0x00,  0x00,  0x00,  0xd3,  0x01,  0x00,  0x00,  0x99,  0x07,  0x00,  0x00,
  0x0e,  0x12,  0x00,  0x00,  0x43,  0xf8,  0xff,  0xff,  0x31,  0x0a,  0x00,  0x00,
  0x4e,  0x03,  0x00,  0x00,  0x57,  0x07,  0x00,  0x00,  0x98,  0x1f,  0x00,  0x00,
  0xd9,  0x01,  0x00,  0x00,  0xc3,  0x03,  0x00,  0x00,  0x36,  0xfb,  0xff,  0xff,
  0x06,  0xfc,  0xff,  0xff,  0x82,  0x0e,  0x00,  0x00,  0xd1,  0x04,  0x00,  0x00,
  0x2f,  0x08,  0x00,  0x00,  0x68,  0x03,  0x00,  0x00,  0x32,  0xff,  0xff,  0xff,
  0x04,  0x00,  0x00,  0x00,  0x80,  0x00,  0x00,  0x00,  0x22,  0x0c,  0x43,  0xd7,
  0x3f,  0x04,  0x26,  0x7f,  0x10,  0x22,  0xeb,  0xd3,  0x0a,  0x07,  0xf7,  0xf3,
  0x3b,  0x28,  0xcc,  0x2a,  0xf8,  0x02,  0xe7,  0x81,  0x11,  0xb0,  0xba,  0x3b,
  0x08,  0xde,  0xd4,  0xd8,  0x58,  0x43,  0x15,  0x31,  0xe2,  0x24,  0x9f,  0xab,
  0xe9,  0xfe,  0x81,  0xf8,  0x88,  0xa9,  0x32,  0x61,  0xdb,  0x2e,  0x08,  0xcf,
  0x45,  0x16,  0x15,  0x7f,  0x1d,  0xf5,  0x05,  0xea,  0x46,  0x25,  0x17,  0xf7,
  0xf2,  0x3d,  0x54,  0xd0,  0x33,  0x09,  0x4c,  0x7f,  0x39,  0xe0,  0x35,  0xd6,
  0x16,  0x19,  0x03,  0x07,  0x43,  0x1b,  0x4b,  0x4d,  0x04,  0xc3,  0xf8,  0x7f,
  0x2a,  0x48,  0x18,  0xf1,  0x53,  0xd5,  0x2a,  0x12,  0x5b,  0xba,  0x3c,  0x33,
  0x9c,  0x5e,  0xba,  0xd4,  0xc6,  0xfc,  0x9e,  0x7f,  0xa8,  0xe4,  0x36,  0x65,
  0xe7,  0x1b,  0x59,  0xec,  0x01,  0xe7,  0x57,  0x7f,  0x3f,  0xf2,  0x0d,  0xdd,
  0x18,  0x15,  0x17,  0x13,  0xbe,  0xff,  0xff,  0xff,  0x04,  0x00,  0x00,  0x00,
  0x20,  0x00,  0x00,  0x00,  0x68,  0x05,  0x00,  0x00,  0x27,  0x03,  0x00,  0x00,
  0xd0,  0x02,  0x00,  0x00,  0x46,  0x05,  0x00,  0x00,  0xae,  0x07,  0x00,  0x00,
  0x9d,  0xfc,  0xff,  0xff,  0x51,  0x03,  0x00,  0x00,  0xf9,  0x03,  0x00,  0x00,
  0xea,  0xff,  0xff,  0xff,  0x04,  0x00,  0x00,  0x00,  0x08,  0x00,  0x00,  0x00,
  0x81,  0x19,  0x3a,  0xbb,  0x9a,  0xe5,  0x5b,  0xa5,  0x00,  0x00,  0x06,  0x00,
  0x08,  0x00,  0x04,  0x00,  0x06,  0x00,  0x00,  0x00,  0x04,  0x00,  0x00,  0x00,
  0x04,  0x00,  0x00,  0x00,  0x89,  0x00,  0x00,  0x00,  0x54,  0xff,  0xff,  0xff,
  0x58,  0xff,  0xff,  0xff,  0x0f,  0x00,  0x00,  0x00,  0x4d,  0x4c,  0x49,  0x52,
  0x20,  0x43,  0x6f,  0x6e,  0x76,  0x65,  0x72,  0x74,  0x65,  0x64,  0x2e,  0x00,
  0x01,  0x00,  0x00,  0x00,  0x14,  0x00,  0x00,  0x00,  0x00,  0x00,  0x0e,  0x00,
  0x18,  0x00,  0x14,  0x00,  0x10,  0x00,  0x0c,  0x00,  0x08,  0x00,  0x04,  0x00,
  0x0e,  0x00,  0x00,  0x00,  0x14,  0x00,  0x00,  0x00,  0x1c,  0x00,  0x00,  0x00,
  0x1c,  0x01,  0x00,  0x00,  0x20,  0x01,  0x00,  0x00,  0x24,  0x01,  0x00,  0x00,
  0x04,  0x00,  0x00,  0x00,  0x6d,  0x61,  0x69,  0x6e,  0x00,  0x00,  0x00,  0x00,
  0x04,  0x00,  0x00,  0x00,  0xc4,  0x00,  0x00,  0x00,  0x7c,  0x00,  0x00,  0x00,
  0x34,  0x00,  0x00,  0x00,  0x10,  0x00,  0x00,  0x00,  0x00,  0x00,  0x0a,  0x00,
  0x10,  0x00,  0x0c,  0x00,  0x08,  0x00,  0x04,  0x00,  0x0a,  0x00,  0x00,  0x00,
  0x0c,  0x00,  0x00,  0x00,  0x10,  0x00,  0x00,  0x00,  0x01,  0x00,  0x00,  0x00,
  0x01,  0x00,  0x00,  0x00,  0x0a,  0x00,  0x00,  0x00,  0x01,  0x00,  0x00,  0x00,
  0x09,  0x00,  0x00,  0x00,  0xca,  0xff,  0xff,  0xff,  0x14,  0x00,  0x00,  0x00,
  0x00,  0x00,  0x00,  0x08,  0x10,  0x00,  0x00,  0x00,  0x14,  0x00,  0x00,  0x00,
  0x04,  0x00,  0x04,  0x00,  0x04,  0x00,  0x00,  0x00,  0x01,  0x00,  0x00,  0x00,
  0x09,  0x00,  0x00,  0x00,  0x03,  0x00,  0x00,  0x00,  0x08,  0x00,  0x00,  0x00,
  0x02,  0x00,  0x00,  0x00,  0x01,  0x00,  0x00,  0x00,  0x00,  0x00,  0x0e,  0x00,
  0x14,  0x00,  0x00,  0x00,  0x10,  0x00,  0x0c,  0x00,  0x0b,  0x00,  0x04,  0x00,
  0x0e,  0x00,  0x00,  0x00,  0x10,  0x00,  0x00,  0x00,  0x00,  0x00,  0x00,  0x08,
  0x10,  0x00,  0x00,  0x00,  0x14,  0x00,  0x00,  0x00,  0xba,  0xff,  0xff,  0xff,
  0x00,  0x00,  0x00,  0x01,  0x01,  0x00,  0x00,  0x00,  0x08,  0x00,  0x00,  0x00,
  0x03,  0x00,  0x00,  0x00,  0x07,  0x00,  0x00,  0x00,  0x04,  0x00,  0x00,  0x00,
  0x03,  0x00,  0x00,  0x00,  0x00,  0x00,  0x0e,  0x00,  0x16,  0x00,  0x00,  0x00,
  0x10,  0x00,  0x0c,  0x00,  0x0b,  0x00,  0x04,  0x00,  0x0e,  0x00,  0x00,  0x00,
  0x18,  0x00,  0x00,  0x00,  0x00,  0x00,  0x00,  0x08,  0x18,  0x00,  0x00,  0x00,
  0x1c,  0x00,  0x00,  0x00,  0x00,  0x00,  0x06,  0x00,  0x08,  0x00,  0x07,  0x00,
  0x06,  0x00,  0x00,  0x00,  0x00,  0x00,  0x00,  0x01,  0x01,  0x00,  0x00,  0x00,
  0x07,  0x00,  0x00,  0x00,  0x03,  0x00,  0x00,  0x00,  0x00,  0x00,  0x00,  0x00,
  0x06,  0x00,  0x00,  0x00,  0x05,  0x00,  0x00,  0x00,  0x01,  0x00,  0x00,  0x00,
  0x0a,  0x00,  0x00,  0x00,  0x01,  0x00,  0x00,  0x00,  0x00,  0x00,  0x00,  0x00,
  0x0b,  0x00,  0x00,  0x00,  0x20,  0x07,  0x00,  0x00,  0xa8,  0x06,  0x00,  0x00,
  0x2c,  0x06,  0x00,  0x00,  0x78,  0x05,  0x00,  0x00,  0xbc,  0x04,  0x00,  0x00,
  0xa8,  0x03,  0x00,  0x00,  0x8c,  0x02,  0x00,  0x00,  0xd8,  0x01,  0x00,  0x00,
  0x1c,  0x01,  0x00,  0x00,  0x80,  0x00,  0x00,  0x00,  0x04,  0x00,  0x00,  0x00,
  0x22,  0xf9,  0xff,  0xff,  0x00,  0x00,  0x00,  0x01,  0x18,  0x00,  0x00,  0x00,
  0x20,  0x00,  0x00,  0x00,  0x3c,  0x00,  0x00,  0x00,  0x0b,  0x00,  0x00,  0x00,
  0x00,  0x00,  0x00,  0x09,  0x50,  0x00,  0x00,  0x00,  0x02,  0x00,  0x00,  0x00,
  0xff,  0xff,  0xff,  0xff,  0x01,  0x00,  0x00,  0x00,  0x0c,  0xf9,  0xff,  0xff,
  0x08,  0x00,  0x00,  0x00,  0x10,  0x00,  0x00,  0x00,  0x01,  0x00,  0x00,  0x00,
  0x80,  0xff,  0xff,  0xff,  0xff,  0xff,  0xff,  0xff,  0x01,  0x00,  0x00,  0x00,
  0x00,  0x00,  0x80,  0x3b,  0x1b,  0x00,  0x00,  0x00,  0x53,  0x74,  0x61,  0x74,
  0x65,  0x66,  0x75,  0x6c,  0x50,  0x61,  0x72,  0x74,  0x69,  0x74,  0x69,  0x6f,
  0x6e,  0x65,  0x64,  0x43,  0x61,  0x6c,  0x6c,  0x5f,  0x31,  0x3a,  0x30,  0x00,
  0x02,  0x00,  0x00,  0x00,  0x01,  0x00,  0x00,  0x00,  0x01,  0x00,  0x00,  0x00,
  0x9a,  0xf9,  0xff,  0xff,  0x00,  0x00,  0x00,  0x01,  0x18,  0x00,  0x00,  0x00,
  0x20,  0x00,  0x00,  0x00,  0x3c,  0x00,  0x00,  0x00,  0x0a,  0x00,  0x00,  0x00,
  0x00,  0x00,  0x00,  0x09,  0x70,  0x00,  0x00,  0x00,  0x02,  0x00,  0x00,  0x00,
  0xff,  0xff,  0xff,  0xff,  0x01,  0x00,  0x00,  0x00,  0x84,  0xf9,  0xff,  0xff,
  0x08,  0x00,  0x00,  0x00,  0x10,  0x00,  0x00,  0x00,  0x01,  0x00,  0x00,  0x00,
  0x6f,  0x00,  0x00,  0x00,  0x00,  0x00,  0x00,  0x00,  0x01,  0x00,  0x00,  0x00,
  0xb3,  0xa3,  0x4d,  0x3e,  0x38,  0x00,  0x00,  0x00,  0x73,  0x65,  0x71,  0x75,
  0x65,  0x6e,  0x74,  0x69,  0x61,  0x6c,  0x5f,  0x31,  0x2f,  0x64,  0x65,  0x6e,
  0x73,  0x65,  0x5f,  0x32,  0x5f,  0x31,  0x2f,  0x4d,  0x61,  0x74,  0x4d,  0x75,
  0x6c,  0x3b,  0x73,  0x65,  0x71,  0x75,  0x65,  0x6e,  0x74,  0x69,  0x61,  0x6c,
  0x5f,  0x31,  0x2f,  0x64,  0x65,  0x6e,  0x73,  0x65,  0x5f,  0x32,  0x5f,  0x31,
  0x2f,  0x41,  0x64,  0x64,  0x00,  0x00,  0x00,  0x00,  0x02,  0x00,  0x00,  0x00,
  0x01,  0x00,  0x00,  0x00,  0x01,  0x00,  0x00,  0x00,  0x32,  0xfa,  0xff,  0xff,
  0x00,  0x00,  0x00,  0x01,  0x18,  0x00,  0x00,  0x00,  0x20,  0x00,  0x00,  0x00,
  0x3c,  0x00,  0x00,  0x00,  0x09,  0x00,  0x00,  0x00,  0x00,  0x00,  0x00,  0x09,
  0x90,  0x00,  0x00,  0x00,  0x02,  0x00,  0x00,  0x00,  0xff,  0xff,  0xff,  0xff,
  0x08,  0x00,  0x00,  0x00,  0x1c,  0xfa,  0xff,  0xff,  0x08,  0x00,  0x00,  0x00,
  0x10,  0x00,  0x00,  0x00,  0x01,  0x00,  0x00,  0x00,  0x80,  0xff,  0xff,  0xff,
  0xff,  0xff,  0xff,  0xff,  0x01,  0x00,  0x00,  0x00,  0x04,  0xe5,  0x58,  0x3d,
  0x58,  0x00,  0x00,  0x00,  0x73,  0x65,  0x71,  0x75,  0x65,  0x6e,  0x74,  0x69,
  0x61,  0x6c,  0x5f,  0x31,  0x2f,  0x64,  0x65,  0x6e,  0x73,  0x65,  0x5f,  0x31,
  0x5f,  0x32,  0x2f,  0x4d,  0x61,  0x74,  0x4d,  0x75,  0x6c,  0x3b,  0x73,  0x65,
  0x71,  0x75,  0x65,  0x6e,  0x74,  0x69,  0x61,  0x6c,  0x5f,  0x31,  0x2f,  0x64,
  0x65,  0x6e,  0x73,  0x65,  0x5f,  0x31,  0x5f,  0x32,  0x2f,  0x52,  0x65,  0x6c,
  0x75,  0x3b,  0x73,  0x65,  0x71,  0x75,  0x65,  0x6e,  0x74,  0x69,  0x61,  0x6c,
  0x5f,  0x31,  0x2f,  0x64,  0x65,  0x6e,  0x73,  0x65,  0x5f,  0x31,  0x5f,  0x32,
  0x2f,  0x42,  0x69,  0x61,  0x73,  0x41,  0x64,  0x64,  0x00,  0x00,  0x00,  0x00,
  0x02,  0x00,  0x00,  0x00,  0x01,  0x00,  0x00,  0x00,  0x08,  0x00,  0x00,  0x00,
  0xea,  0xfa,  0xff,  0xff,  0x00,  0x00,  0x00,  0x01,  0x18,  0x00,  0x00,  0x00,
  0x20,  0x00,  0x00,  0x00,  0x3c,  0x00,  0x00,  0x00,  0x08,  0x00,  0x00,  0x00,
  0x00,  0x00,  0x00,  0x09,  0x88,  0x00,  0x00,  0x00,  0x02,  0x00,  0x00,  0x00,
  0xff,  0xff,  0xff,  0xff,  0x10,  0x00,  0x00,  0x00,  0xd4,  0xfa,  0xff,  0xff,
  0x08,  0x00,  0x00,  0x00,  0x10,  0x00,  0x00,  0x00,  0x01,  0x00,  0x00,  0x00,
  0x80,  0xff,  0xff,  0xff,  0xff,  0xff,  0xff,  0xff,  0x01,  0x00,  0x00,  0x00,
  0xcf,  0xd0,  0x8e,  0x3c,  0x52,  0x00,  0x00,  0x00,  0x73,  0x65,  0x71,  0x75,
  0x65,  0x6e,  0x74,  0x69,  0x61,  0x6c,  0x5f,  0x31,  0x2f,  0x64,  0x65,  0x6e,
  0x73,  0x65,  0x5f,  0x31,  0x2f,  0x4d,  0x61,  0x74,  0x4d,  0x75,  0x6c,  0x3b,
  0x73,  0x65,  0x71,  0x75,  0x65,  0x6e,  0x74,  0x69,  0x61,  0x6c,  0x5f,  0x31,
  0x2f,  0x64,  0x65,  0x6e,  0x73,  0x65,  0x5f,  0x31,  0x2f,  0x52,  0x65,  0x6c,
  0x75,  0x3b,  0x73,  0x65,  0x71,  0x75,  0x65,  0x6e,  0x74,  0x69,  0x61,  0x6c,
  0x5f,  0x31,  0x2f,  0x64,  0x65,  0x6e,  0x73,  0x65,  0x5f,  0x31,  0x2f,  0x42,
  0x69,  0x61,  0x73,  0x41,  0x64,  0x64,  0x00,  0x00,  0x02,  0x00,  0x00,  0x00,
  0x01,  0x00,  0x00,  0x00,  0x10,  0x00,  0x00,  0x00,  0x0e,  0xfc,  0xff,  0xff,
  0x00,  0x00,  0x00,  0x01,  0x14,  0x00,  0x00,  0x00,  0xe8,  0x00,  0x00,  0x00,
  0x07,  0x00,  0x00,  0x00,  0x00,  0x00,  0x00,  0x09,  0xf4,  0x00,  0x00,  0x00,
  0x74,  0xfb,  0xff,  0xff,  0x08,  0x00,  0x00,  0x00,  0x8c,  0x00,  0x00,  0x00,
  0x10,  0x00,  0x00,  0x00,  0x00,  0x00,  0x00,  0x00,  0x00,  0x00,  0x00,  0x00,
  0x00,  0x00,  0x00,  0x00,  0x00,  0x00,  0x00,  0x00,  0x00,  0x00,  0x00,  0x00,
  0x00,  0x00,  0x00,  0x00,  0x00,  0x00,  0x00,  0x00,  0x00,  0x00,  0x00,  0x00,
  0x00,  0x00,  0x00,  0x00,  0x00,  0x00,  0x00,  0x00,  0x00,  0x00,  0x00,  0x00,
  0x00,  0x00,  0x00,  0x00,  0x00,  0x00,  0x00,  0x00,  0x00,  0x00,  0x00,  0x00,
  0x00,  0x00,  0x00,  0x00,  0x00,  0x00,  0x00,  0x00,  0x00,  0x00,  0x00,  0x00,
  0x00,  0x00,  0x00,  0x00,  0x00,  0x00,  0x00,  0x00,  0x00,  0x00,  0x00,  0x00,
  0x00,  0x00,  0x00,  0x00,  0x00,  0x00,  0x00,  0x00,  0x00,  0x00,  0x00,  0x00,
  0x00,  0x00,  0x00,  0x00,  0x00,  0x00,  0x00,  0x00,  0x00,  0x00,  0x00,  0x00,
  0x00,  0x00,  0x00,  0x00,  0x00,  0x00,  0x00,  0x00,  0x00,  0x00,  0x00,  0x00,
  0x00,  0x00,  0x00,  0x00,  0x00,  0x00,  0x00,  0x00,  0x00,  0x00,  0x00,  0x00,
  0x00,  0x00,  0x00,  0x00,  0x10,  0x00,  0x00,  0x00,  0x8b,  0xd3,  0x42,  0x3b,
  0xd7,  0xd7,  0xaa,  0x3b,  0x39,  0x5b,  0xbd,  0x3b,  0x2e,  0xf3,  0x50,  0x3b,
  0x49,  0xc3,  0xa1,  0x3b,  0x00,  0x5e,  0x8b,  0x3b,  0x23,  0xa4,  0xd0,  0x3b,
  0x23,  0x9b,  0xb4,  0x3b,  0xad,  0xc5,  0x90,  0x3b,  0x14,  0x55,  0x8d,  0x3b,
  0xda,  0x7d,  0xb6,  0x3b,  0x49,  0x04,  0xae,  0x3b,  0xed,  0xa9,  0x9a,  0x3b,
  0x5b,  0xc7,  0x98,  0x3b,  0xc9,  0xee,  0x6b,  0x3b,  0xf8,  0x20,  0x98,  0x3b,
  0x12,  0x00,  0x00,  0x00,  0x74,  0x66,  0x6c,  0x2e,  0x70,  0x73,  0x65,  0x75,
  0x64,  0x6f,  0x5f,  0x71,  0x63,  0x6f,  0x6e,  0x73,  0x74,  0x35,  0x00,  0x00,
  0x02,  0x00,  0x00,  0x00,  0x10,  0x00,  0x00,  0x00,  0x0c,  0x00,  0x00,  0x00,
  0x26,  0xfd,  0xff,  0xff,  0x00,  0x00,  0x00,  0x01,  0x14,  0x00,  0x00,  0x00,
  0xe4,  0x00,  0x00,  0x00,  0x06,  0x00,  0x00,  0x00,  0x00,  0x00,  0x00,  0x02,
  0xf0,  0x00,  0x00,  0x00,  0x8c,  0xfc,  0xff,  0xff,  0x08,  0x00,  0x00,  0x00,
  0x88,  0x00,  0x00,  0x00,  0x10,  0x00,  0x00,  0x00,  0x00,  0x00,  0x00,  0x00,
  0x00,  0x00,  0x00,  0x00,  0x00,  0x00,  0x00,  0x00,  0x00,  0x00,  0x00,  0x00,
  0x00,  0x00,  0x00,  0x00,  0x00,  0x00,  0x00,  0x00,  0x00,  0x00,  0x00,  0x00,
  0x00,  0x00,  0x00,  0x00,  0x00,  0x00,  0x00,  0x00,  0x00,  0x00,  0x00,  0x00,
  0x00,  0x00,  0x00,  0x00,  0x00,  0x00,  0x00,  0x00,  0x00,  0x00,  0x00,  0x00,
  0x00,  0x00,  0x00,  0x00,  0x00,  0x00,  0x00,  0x00,  0x00,  0x00,  0x00,  0x00,
  0x00,  0x00,  0x00,  0x00,  0x00,  0x00,  0x00,  0x00,  0x00,  0x00,  0x00,  0x00,
  0x00,  0x00,  0x00,  0x00,  0x00,  0x00,  0x00,  0x00,  0x00,  0x00,  0x00,  0x00,
  0x00,  0x00,  0x00,  0x00,  0x00,  0x00,  0x00,  0x00,  0x00,  0x00,  0x00,  0x00,
  0x00,  0x00,  0x00,  0x00,  0x00,  0x00,  0x00,  0x00,  0x00,  0x00,  0x00,  0x00,
  0x00,  0x00,  0x00,  0x00,  0x00,  0x00,  0x00,  0x00,  0x00,  0x00,  0x00,  0x00,
  0x00,  0x00,  0x00,  0x00,  0x10,  0x00,  0x00,  0x00,  0x4d,  0x78,  0x63,  0x38,
  0xe1,  0x77,  0xc7,  0x38,  0x5b,  0x15,  0xdd,  0x38,  0xbf,  0xf5,  0x73,  0x38,
  0xd7,  0xdd,  0xbc,  0x38,  0xee,  0xb7,  0xa2,  0x38,  0x76,  0x99,  0xf3,  0x38,
  0xf0,  0xdd,  0xd2,  0x38,  0x71,  0x07,  0xa9,  0x38,  0x4c,  0x03,  0xa5,  0x38,
  0x88,  0x11,  0xd5,  0x38,  0x73,  0x2c,  0xcb,  0x38,  0xfa,  0x93,  0xb4,  0x38,
  0x8d,  0x60,  0xb2,  0x38,  0x5e,  0xbb,  0x89,  0x38,  0x49,  0x9e,  0xb1,  0x38,
  0x12,  0x00,  0x00,  0x00,  0x74,  0x66,  0x6c,  0x2e,  0x70,  0x73,  0x65,  0x75,
  0x64,  0x6f,  0x5f,  0x71,  0x63,  0x6f,  0x6e,  0x73,  0x74,  0x34,  0x00,  0x00,
  0x01,  0x00,  0x00,  0x00,  0x10,  0x00,  0x00,  0x00,  0x36,  0xfe,  0xff,  0xff,
  0x00,  0x00,  0x00,  0x01,  0x14,  0x00,  0x00,  0x00,  0x88,  0x00,  0x00,  0x00,
  0x05,  0x00,  0x00,  0x00,  0x00,  0x00,  0x00,  0x09,  0x94,  0x00,  0x00,  0x00,
  0x9c,  0xfd,  0xff,  0xff,  0x08,  0x00,  0x00,  0x00,  0x4c,  0x00,  0x00,  0x00,
  0x08,  0x00,  0x00,  0x00,  0x00,  0x00,  0x00,  0x00,  0x00,  0x00,  0x00,  0x00,
  0x00,  0x00,  0x00,  0x00,  0x00,  0x00,  0x00,  0x00,  0x00,  0x00,  0x00,  0x00,
  0x00,  0x00,  0x00,  0x00,  0x00,  0x00,  0x00,  0x00,  0x00,  0x00,  0x00,  0x00,
  0x00,  0x00,  0x00,  0x00,  0x00,  0x00,  0x00,  0x00,  0x00,  0x00,  0x00,  0x00,
  0x00,  0x00,  0x00,  0x00,  0x00,  0x00,  0x00,  0x00,  0x00,  0x00,  0x00,  0x00,
  0x00,  0x00,  0x00,  0x00,  0x00,  0x00,  0x00,  0x00,  0x00,  0x00,  0x00,  0x00,
  0x08,  0x00,  0x00,  0x00,  0xd3,  0x02,  0x24,  0x3c,  0x3f,  0x0e,  0x00,  0x3c,
  0x27,  0x92,  0xa7,  0x3b,  0xcb,  0x76,  0x3f,  0x3c,  0x7e,  0x15,  0x1a,  0x3c,
  0x73,  0xe7,  0xc2,  0x3b,  0xda,  0xe9,  0xa5,  0x3b,  0xbd,  0x55,  0x1b,  0x3c,
  0x12,  0x00,  0x00,  0x00,  0x74,  0x66,  0x6c,  0x2e,  0x70,  0x73,  0x65,  0x75,
  0x64,  0x6f,  0x5f,  0x71,  0x63,  0x6f,  0x6e,  0x73,  0x74,  0x33,  0x00,  0x00,
  0x02,  0x00,  0x00,  0x00,  0x08,  0x00,  0x00,  0x00,  0x10,  0x00,  0x00,  0x00,
  0xee,  0xfe,  0xff,  0xff,  0x00,  0x00,  0x00,  0x01,  0x14,  0x00,  0x00,  0x00,
  0x84,  0x00,  0x00,  0x00,  0x04,  0x00,  0x00,  0x00,  0x00,  0x00,  0x00,  0x02,
  0x90,  0x00,  0x00,  0x00,  0x54,  0xfe,  0xff,  0xff,  0x08,  0x00,  0x00,  0x00,
  0x48,  0x00,  0x00,  0x00,  0x08,  0x00,  0x00,  0x00,  0x00,  0x00,  0x00,  0x00,
  0x00,  0x00,  0x00,  0x00,  0x00,  0x00,  0x00,  0x00,  0x00,  0x00,  0x00,  0x00,
  0x00,  0x00,  0x00,  0x00,  0x00,  0x00,  0x00,  0x00,  0x00,  0x00,  0x00,  0x00,
  0x00,  0x00,  0x00,  0x00,  0x00,  0x00,  0x00,  0x00,  0x00,  0x00,  0x00,  0x00,
  0x00,  0x00,  0x00,  0x00,  0x00,  0x00,  0x00,  0x00,  0x00,  0x00,  0x00,  0x00,
  0x00,  0x00,  0x00,  0x00,  0x00,  0x00,  0x00,  0x00,  0x00,  0x00,  0x00,  0x00,
  0x08,  0x00,  0x00,  0x00,  0xb0,  0xfe,  0x36,  0x39,  0xb4,  0xe0,  0x0e,  0x39,
  0x80,  0xf7,  0xba,  0x38,  0x20,  0xa0,  0x55,  0x39,  0x34,  0xeb,  0x2b,  0x39,
  0xb7,  0x76,  0xd9,  0x38,  0x16,  0x1e,  0xb9,  0x38,  0x84,  0x50,  0x2d,  0x39,
  0x12,  0x00,  0x00,  0x00,  0x74,  0x66,  0x6c,  0x2e,  0x70,  0x73,  0x65,  0x75,
  0x64,  0x6f,  0x5f,  0x71,  0x63,  0x6f,  0x6e,  0x73,  0x74,  0x32,  0x00,  0x00,
  0x01,  0x00,  0x00,  0x00,  0x08,  0x00,  0x00,  0x00,  0x9e,  0xff,  0xff,  0xff,
  0x00,  0x00,  0x00,  0x01,  0x14,  0x00,  0x00,  0x00,  0x30,  0x00,  0x00,  0x00,
  0x03,  0x00,  0x00,  0x00,  0x00,  0x00,  0x00,  0x09,  0x3c,  0x00,  0x00,  0x00,
  0x04,  0xff,  0xff,  0xff,  0x08,  0x00,  0x00,  0x00,  0x10,  0x00,  0x00,  0x00,
  0x01,  0x00,  0x00,  0x00,  0x00,  0x00,  0x00,  0x00,  0x00,  0x00,  0x00,  0x00,
  0x01,  0x00,  0x00,  0x00,  0x0d,  0xf9,  0x28,  0x3c,  0x12,  0x00,  0x00,  0x00,
  0x74,  0x66,  0x6c,  0x2e,  0x70,  0x73,  0x65,  0x75,  0x64,  0x6f,  0x5f,  0x71,
  0x63,  0x6f,  0x6e,  0x73,  0x74,  0x31,  0x00,  0x00,  0x02,  0x00,  0x00,  0x00,
  0x01,  0x00,  0x00,  0x00,  0x08,  0x00,  0x00,  0x00,  0x00,  0x00,  0x16,  0x00,
  0x1c,  0x00,  0x18,  0x00,  0x17,  0x00,  0x10,  0x00,  0x0c,  0x00,  0x08,  0x00,
  0x00,  0x00,  0x00,  0x00,  0x00,  0x00,  0x07,  0x00,  0x16,  0x00,  0x00,  0x00,
  0x00,  0x00,  0x00,  0x01,  0x14,  0x00,  0x00,  0x00,  0x30,  0x00,  0x00,  0x00,
  0x02,  0x00,  0x00,  0x00,  0x00,  0x00,  0x00,  0x02,  0x3c,  0x00,  0x00,  0x00,
  0x7c,  0xff,  0xff,  0xff,  0x08,  0x00,  0x00,  0x00,  0x10,  0x00,  0x00,  0x00,
  0x01,  0x00,  0x00,  0x00,  0x00,  0x00,  0x00,  0x00,  0x00,  0x00,  0x00,  0x00,
  0x01,  0x00,  0x00,  0x00,  0x4c,  0x29,  0x0f,  0x3a,  0x11,  0x00,  0x00,  0x00,
  0x74,  0x66,  0x6c,  0x2e,  0x70,  0x73,  0x65,  0x75,  0x64,  0x6f,  0x5f,  0x71,
  0x63,  0x6f,  0x6e,  0x73,  0x74,  0x00,  0x00,  0x00,  0x01,  0x00,  0x00,  0x00,
  0x01,  0x00,  0x00,  0x00,  0x00,  0x00,  0x16,  0x00,  0x20,  0x00,  0x1c,  0x00,
  0x1b,  0x00,  0x14,  0x00,  0x10,  0x00,  0x0c,  0x00,  0x00,  0x00,  0x00,  0x00,
  0x08,  0x00,  0x07,  0x00,  0x16,  0x00,  0x00,  0x00,  0x00,  0x00,  0x00,  0x01,
  0x18,  0x00,  0x00,  0x00,  0x2c,  0x00,  0x00,  0x00,  0x48,  0x00,  0x00,  0x00,
  0x01,  0x00,  0x00,  0x00,  0x00,  0x00,  0x00,  0x09,  0x60,  0x00,  0x00,  0x00,
  0x02,  0x00,  0x00,  0x00,  0xff,  0xff,  0xff,  0xff,  0x0c,  0x00,  0x00,  0x00,
  0x0c,  0x00,  0x0c,  0x00,  0x00,  0x00,  0x00,  0x00,  0x08,  0x00,  0x04,  0x00,
  0x0c,  0x00,  0x00,  0x00,  0x08,  0x00,  0x00,  0x00,  0x10,  0x00,  0x00,  0x00,
  0x01,  0x00,  0x00,  0x00,  0x0d,  0x00,  0x00,  0x00,  0x00,  0x00,  0x00,  0x00,
  0x01,  0x00,  0x00,  0x00,  0x5a,  0x72,  0x95,  0x3c,  0x1e,  0x00,  0x00,  0x00,
  0x73,  0x65,  0x72,  0x76,  0x69,  0x6e,  0x67,  0x5f,  0x64,  0x65,  0x66,  0x61,
  0x75,  0x6c,  0x74,  0x5f,  0x6b,  0x65,  0x72,  0x61,  0x73,  0x5f,  0x74,  0x65,
  0x6e,  0x73,  0x6f,  0x72,  0x3a,  0x30,  0x00,  0x00,  0x02,  0x00,  0x00,  0x00,
  0x01,  0x00,  0x00,  0x00,  0x0c,  0x00,  0x00,  0x00,  0x02,  0x00,  0x00,  0x00,
  0x24,  0x00,  0x00,  0x00,  0x04,  0x00,  0x00,  0x00,  0xf0,  0xff,  0xff,  0xff,
  0x0e,  0x00,  0x00,  0x00,  0x02,  0x00,  0x00,  0x00,  0x00,  0x00,  0x00,  0x0e,
  0x0c,  0x00,  0x10,  0x00,  0x0f,  0x00,  0x00,  0x00,  0x08,  0x00,  0x04,  0x00,
  0x0c,  0x00,  0x00,  0x00,  0x09,  0x00,  0x00,  0x00,  0x04,  0x00,  0x00,  0x00,
  0x00,  0x00,  0x00,  0x09,
};
const int g_model_len = sizeof(g_model);
