// Lab 2 - Track W - model.cpp  (exported from weather-training.ipynb)
#include "model.h"

alignas(8) const unsigned char g_model[] = {
  0x20,  0x00,  0x00,  0x00,  0x54,  0x46,  0x4c,  0x33,  0x00,  0x00,  0x00,  0x00,
  0x14,  0x00,  0x20,  0x00,  0x1c,  0x00,  0x18,  0x00,  0x14,  0x00,  0x10,  0x00,
  0x0c,  0x00,  0x00,  0x00,  0x08,  0x00,  0x04,  0x00,  0x14,  0x00,  0x00,  0x00,
  0x1c,  0x00,  0x00,  0x00,  0x8c,  0x00,  0x00,  0x00,  0xe4,  0x00,  0x00,  0x00,
  0xb8,  0x03,  0x00,  0x00,  0xc8,  0x03,  0x00,  0x00,  0xe8,  0x0c,  0x00,  0x00,
  0x03,  0x00,  0x00,  0x00,  0x01,  0x00,  0x00,  0x00,  0x04,  0x00,  0x00,  0x00,
  0xfa,  0xfb,  0xff,  0xff,  0x0c,  0x00,  0x00,  0x00,  0x1c,  0x00,  0x00,  0x00,
  0x3c,  0x00,  0x00,  0x00,  0x0f,  0x00,  0x00,  0x00,  0x73,  0x65,  0x72,  0x76,
  0x69,  0x6e,  0x67,  0x5f,  0x64,  0x65,  0x66,  0x61,  0x75,  0x6c,  0x74,  0x00,
  0x01,  0x00,  0x00,  0x00,  0x04,  0x00,  0x00,  0x00,  0x90,  0xff,  0xff,  0xff,
  0x0a,  0x00,  0x00,  0x00,  0x04,  0x00,  0x00,  0x00,  0x08,  0x00,  0x00,  0x00,
  0x6f,  0x75,  0x74,  0x70,  0x75,  0x74,  0x5f,  0x30,  0x00,  0x00,  0x00,  0x00,
  0x01,  0x00,  0x00,  0x00,  0x04,  0x00,  0x00,  0x00,  0xce,  0xfc,  0xff,  0xff,
  0x04,  0x00,  0x00,  0x00,  0x0e,  0x00,  0x00,  0x00,  0x6b,  0x65,  0x72,  0x61,
  0x73,  0x5f,  0x74,  0x65,  0x6e,  0x73,  0x6f,  0x72,  0x5f,  0x34,  0x00,  0x00,
  0x02,  0x00,  0x00,  0x00,  0x34,  0x00,  0x00,  0x00,  0x04,  0x00,  0x00,  0x00,
  0xdc,  0xff,  0xff,  0xff,  0x0d,  0x00,  0x00,  0x00,  0x04,  0x00,  0x00,  0x00,
  0x13,  0x00,  0x00,  0x00,  0x43,  0x4f,  0x4e,  0x56,  0x45,  0x52,  0x53,  0x49,
  0x4f,  0x4e,  0x5f,  0x4d,  0x45,  0x54,  0x41,  0x44,  0x41,  0x54,  0x41,  0x00,
  0x08,  0x00,  0x0c,  0x00,  0x08,  0x00,  0x04,  0x00,  0x08,  0x00,  0x00,  0x00,
  0x0c,  0x00,  0x00,  0x00,  0x04,  0x00,  0x00,  0x00,  0x13,  0x00,  0x00,  0x00,
  0x6d,  0x69,  0x6e,  0x5f,  0x72,  0x75,  0x6e,  0x74,  0x69,  0x6d,  0x65,  0x5f,
  0x76,  0x65,  0x72,  0x73,  0x69,  0x6f,  0x6e,  0x00,  0x0e,  0x00,  0x00,  0x00,
  0xd0,  0x02,  0x00,  0x00,  0xc8,  0x02,  0x00,  0x00,  0xb4,  0x02,  0x00,  0x00,
  0x94,  0x02,  0x00,  0x00,  0x64,  0x02,  0x00,  0x00,  0xd4,  0x01,  0x00,  0x00,
  0x84,  0x01,  0x00,  0x00,  0xb4,  0x00,  0x00,  0x00,  0xac,  0x00,  0x00,  0x00,
  0xa4,  0x00,  0x00,  0x00,  0x9c,  0x00,  0x00,  0x00,  0x94,  0x00,  0x00,  0x00,
  0x74,  0x00,  0x00,  0x00,  0x04,  0x00,  0x00,  0x00,  0x82,  0xfd,  0xff,  0xff,
  0x04,  0x00,  0x00,  0x00,  0x60,  0x00,  0x00,  0x00,  0x0c,  0x00,  0x00,  0x00,
  0x08,  0x00,  0x0e,  0x00,  0x08,  0x00,  0x04,  0x00,  0x08,  0x00,  0x00,  0x00,
  0x10,  0x00,  0x00,  0x00,  0x28,  0x00,  0x00,  0x00,  0x00,  0x00,  0x06,  0x00,
  0x08,  0x00,  0x04,  0x00,  0x06,  0x00,  0x00,  0x00,  0x04,  0x00,  0x00,  0x00,
  0x01,  0x00,  0x00,  0x00,  0xeb,  0x03,  0x00,  0x00,  0x0c,  0x00,  0x18,  0x00,
  0x14,  0x00,  0x10,  0x00,  0x0c,  0x00,  0x04,  0x00,  0x0c,  0x00,  0x00,  0x00,
  0x5b,  0x11,  0x69,  0x6e,  0xde,  0x56,  0x28,  0xc8,  0x02,  0x00,  0x00,  0x00,
  0x02,  0x00,  0x00,  0x00,  0x04,  0x00,  0x00,  0x00,  0x06,  0x00,  0x00,  0x00,
  0x32,  0x2e,  0x32,  0x30,  0x2e,  0x30,  0x00,  0x00,  0xee,  0xfd,  0xff,  0xff,
  0x04,  0x00,  0x00,  0x00,  0x10,  0x00,  0x00,  0x00,  0x31,  0x2e,  0x31,  0x34,
  0x2e,  0x30,  0x00,  0x00,  0x00,  0x00,  0x00,  0x00,  0x00,  0x00,  0x00,  0x00,
  0x48,  0xfd,  0xff,  0xff,  0x4c,  0xfd,  0xff,  0xff,  0x50,  0xfd,  0xff,  0xff,
  0x54,  0xfd,  0xff,  0xff,  0x1a,  0xfe,  0xff,  0xff,  0x04,  0x00,  0x00,  0x00,
  0xc0,  0x00,  0x00,  0x00,  0xe6,  0x17,  0xdf,  0x59,  0x17,  0x16,  0xf9,  0xbe,
  0x8f,  0x26,  0xf1,  0x7f,  0x82,  0xfe,  0x24,  0xe0,  0x7f,  0x50,  0xfd,  0x7e,
  0x76,  0xf8,  0x43,  0xec,  0x79,  0xde,  0x25,  0x01,  0x3b,  0xb3,  0x7f,  0xfe,
  0x67,  0xe8,  0x29,  0x36,  0x94,  0xda,  0xee,  0x81,  0x63,  0xb7,  0x84,  0x21,
  0x08,  0xac,  0x8a,  0x7c,  0xd9,  0xaf,  0xb6,  0xc6,  0x5c,  0xd9,  0xb4,  0x81,
  0x5a,  0xf1,  0x19,  0xe8,  0xd8,  0xd4,  0x3c,  0x33,  0xb7,  0x25,  0xe7,  0x11,
  0x81,  0xcd,  0xad,  0x04,  0xdc,  0x1d,  0x20,  0xea,  0x9d,  0x10,  0x81,  0xec,
  0x8b,  0x40,  0xff,  0xe3,  0xb8,  0x30,  0xd4,  0x1e,  0xe5,  0x22,  0xcf,  0xda,
  0x0a,  0xe7,  0x20,  0x7f,  0xb5,  0xe6,  0xbf,  0x36,  0x04,  0x65,  0x06,  0x07,
  0x15,  0x65,  0x30,  0x7f,  0xea,  0xcf,  0x26,  0x58,  0xa5,  0x81,  0x16,  0xbf,
  0x06,  0x01,  0xd6,  0x91,  0xf4,  0xd8,  0x70,  0xeb,  0x21,  0xac,  0xe6,  0x15,
  0xfb,  0xb0,  0x7f,  0x9b,  0x31,  0xbb,  0x7f,  0x13,  0xd9,  0x02,  0x1c,  0x49,
  0x4b,  0x32,  0x40,  0xee,  0xbe,  0xe7,  0xa2,  0x58,  0xd9,  0x24,  0x2e,  0x12,
  0xf2,  0xba,  0x7f,  0xa2,  0xcb,  0x0f,  0xda,  0x45,  0x26,  0x31,  0xf9,  0x2e,
  0xd2,  0x73,  0x7f,  0x61,  0xfd,  0x1e,  0x2e,  0x0b,  0x13,  0xcc,  0xd6,  0x50,
  0x7f,  0xe4,  0x49,  0x1e,  0x2f,  0x81,  0xa7,  0xad,  0x16,  0xad,  0xcd,  0xb9,
  0x1d,  0x0d,  0x2f,  0x64,  0xe6,  0xfe,  0xff,  0xff,  0x04,  0x00,  0x00,  0x00,
  0x40,  0x00,  0x00,  0x00,  0x52,  0xfc,  0xff,  0xff,  0x0e,  0x11,  0x00,  0x00,
  0x4a,  0x1c,  0x00,  0x00,  0xb0,  0xfb,  0xff,  0xff,  0x57,  0x00,  0x00,  0x00,
  0x4a,  0xf7,  0xff,  0xff,  0xd7,  0xf4,  0xff,  0xff,  0x09,  0x07,  0x00,  0x00,
  0x47,  0x08,  0x00,  0x00,  0x7c,  0x08,  0x00,  0x00,  0x58,  0x0f,  0x00,  0x00,
  0x7b,  0x18,  0x00,  0x00,  0xb1,  0x11,  0x00,  0x00,  0xd5,  0xf8,  0xff,  0xff,
  0xb2,  0x0e,  0x00,  0x00,  0x0c,  0xfc,  0xff,  0xff,  0x32,  0xff,  0xff,  0xff,
  0x04,  0x00,  0x00,  0x00,  0x80,  0x00,  0x00,  0x00,  0xa3,  0x81,  0x29,  0x0d,
  0x53,  0x28,  0xdd,  0xde,  0xde,  0xd3,  0xa5,  0xdd,  0x07,  0xeb,  0x40,  0xb6,
  0xbe,  0x64,  0x7f,  0xef,  0x31,  0xba,  0xc4,  0x3d,  0x25,  0x32,  0x32,  0x63,
  0xf2,  0xc4,  0x30,  0x10,  0xb6,  0x2d,  0xaf,  0x7b,  0xf4,  0xac,  0xe9,  0x86,
  0x81,  0xab,  0xaa,  0x01,  0x6d,  0x13,  0xb9,  0x19,  0xd9,  0x1f,  0x7f,  0xe2,
  0xe9,  0xc5,  0x07,  0x01,  0x1f,  0xf6,  0x0d,  0x23,  0x24,  0x07,  0x43,  0x27,
  0xcd,  0x50,  0x41,  0xdc,  0x21,  0xc8,  0x0a,  0x04,  0x1a,  0x4d,  0xf8,  0x60,
  0x60,  0x13,  0x7f,  0xd2,  0xd3,  0xec,  0x35,  0xce,  0xfe,  0xff,  0xe6,  0x3b,
  0x04,  0xfe,  0x81,  0xcf,  0x8e,  0x92,  0x1d,  0xdf,  0x23,  0x5c,  0x71,  0x15,
  0xe8,  0x9d,  0xb5,  0x07,  0xe7,  0xe3,  0x15,  0x4d,  0x66,  0x25,  0x7f,  0x22,
  0x3d,  0x0b,  0xc3,  0x0b,  0x41,  0xc2,  0xf4,  0x42,  0x53,  0x0d,  0xff,  0xf3,
  0xe7,  0xf9,  0x81,  0x64,  0xbe,  0xff,  0xff,  0xff,  0x04,  0x00,  0x00,  0x00,
  0x20,  0x00,  0x00,  0x00,  0x98,  0xfc,  0xff,  0xff,  0xe9,  0x06,  0x00,  0x00,
  0xc2,  0xfc,  0xff,  0xff,  0x3b,  0x05,  0x00,  0x00,  0xc4,  0x04,  0x00,  0x00,
  0x89,  0xfb,  0xff,  0xff,  0x7f,  0x05,  0x00,  0x00,  0x21,  0x00,  0x00,  0x00,
  0xea,  0xff,  0xff,  0xff,  0x04,  0x00,  0x00,  0x00,  0x08,  0x00,  0x00,  0x00,
  0x26,  0xc1,  0x3d,  0x98,  0x81,  0x29,  0x88,  0x60,  0x00,  0x00,  0x06,  0x00,
  0x08,  0x00,  0x04,  0x00,  0x06,  0x00,  0x00,  0x00,  0x04,  0x00,  0x00,  0x00,
  0x04,  0x00,  0x00,  0x00,  0x6b,  0xff,  0xff,  0xff,  0x54,  0xff,  0xff,  0xff,
  0x58,  0xff,  0xff,  0xff,  0x0f,  0x00,  0x00,  0x00,  0x4d,  0x4c,  0x49,  0x52,
  0x20,  0x43,  0x6f,  0x6e,  0x76,  0x65,  0x72,  0x74,  0x65,  0x64,  0x2e,  0x00,
  0x01,  0x00,  0x00,  0x00,  0x14,  0x00,  0x00,  0x00,  0x00,  0x00,  0x0e,  0x00,
  0x18,  0x00,  0x14,  0x00,  0x10,  0x00,  0x0c,  0x00,  0x08,  0x00,  0x04,  0x00,
  0x0e,  0x00,  0x00,  0x00,  0x14,  0x00,  0x00,  0x00,  0x1c,  0x00,  0x00,  0x00,
  0x1c,  0x01,  0x00,  0x00,  0x20,  0x01,  0x00,  0x00,  0x24,  0x01,  0x00,  0x00,
  0x04,  0x00,  0x00,  0x00,  0x6d,  0x61,  0x69,  0x6e,  0x00,  0x00,  0x00,  0x00,
  0x04,  0x00,  0x00,  0x00,  0xc4,  0x00,  0x00,  0x00,  0x7c,  0x00,  0x00,  0x00,
  0x34,  0x00,  0x00,  0x00,  0x10,  0x00,  0x00,  0x00,  0x00,  0x00,  0x0a,  0x00,
  0x10,  0x00,  0x0c,  0x00,  0x08,  0x00,  0x04,  0x00,  0x0a,  0x00,  0x00,  0x00,
  0x0c,  0x00,  0x00,  0x00,  0x10,  0x00,  0x00,  0x00,  0x01,  0x00,  0x00,  0x00,
  0x01,  0x00,  0x00,  0x00,  0x0a,  0x00,  0x00,  0x00,  0x01,  0x00,  0x00,  0x00,
  0x09,  0x00,  0x00,  0x00,  0xca,  0xff,  0xff,  0xff,  0x14,  0x00,  0x00,  0x00,
  0x00,  0x00,  0x00,  0x08,  0x10,  0x00,  0x00,  0x00,  0x14,  0x00,  0x00,  0x00,
  0x04,  0x00,  0x04,  0x00,  0x04,  0x00,  0x00,  0x00,  0x01,  0x00,  0x00,  0x00,
  0x09,  0x00,  0x00,  0x00,  0x03,  0x00,  0x00,  0x00,  0x08,  0x00,  0x00,  0x00,
  0x02,  0x00,  0x00,  0x00,  0x01,  0x00,  0x00,  0x00,  0x00,  0x00,  0x0e,  0x00,
  0x14,  0x00,  0x00,  0x00,  0x10,  0x00,  0x0c,  0x00,  0x0b,  0x00,  0x04,  0x00,
  0x0e,  0x00,  0x00,  0x00,  0x10,  0x00,  0x00,  0x00,  0x00,  0x00,  0x00,  0x08,
  0x10,  0x00,  0x00,  0x00,  0x14,  0x00,  0x00,  0x00,  0xba,  0xff,  0xff,  0xff,
  0x00,  0x00,  0x00,  0x01,  0x01,  0x00,  0x00,  0x00,  0x08,  0x00,  0x00,  0x00,
  0x03,  0x00,  0x00,  0x00,  0x07,  0x00,  0x00,  0x00,  0x04,  0x00,  0x00,  0x00,
  0x03,  0x00,  0x00,  0x00,  0x00,  0x00,  0x0e,  0x00,  0x16,  0x00,  0x00,  0x00,
  0x10,  0x00,  0x0c,  0x00,  0x0b,  0x00,  0x04,  0x00,  0x0e,  0x00,  0x00,  0x00,
  0x18,  0x00,  0x00,  0x00,  0x00,  0x00,  0x00,  0x08,  0x18,  0x00,  0x00,  0x00,
  0x1c,  0x00,  0x00,  0x00,  0x00,  0x00,  0x06,  0x00,  0x08,  0x00,  0x07,  0x00,
  0x06,  0x00,  0x00,  0x00,  0x00,  0x00,  0x00,  0x01,  0x01,  0x00,  0x00,  0x00,
  0x07,  0x00,  0x00,  0x00,  0x03,  0x00,  0x00,  0x00,  0x00,  0x00,  0x00,  0x00,
  0x06,  0x00,  0x00,  0x00,  0x05,  0x00,  0x00,  0x00,  0x01,  0x00,  0x00,  0x00,
  0x0a,  0x00,  0x00,  0x00,  0x01,  0x00,  0x00,  0x00,  0x00,  0x00,  0x00,  0x00,
  0x0b,  0x00,  0x00,  0x00,  0x40,  0x07,  0x00,  0x00,  0xc8,  0x06,  0x00,  0x00,
  0x4c,  0x06,  0x00,  0x00,  0x98,  0x05,  0x00,  0x00,  0xdc,  0x04,  0x00,  0x00,
  0xc8,  0x03,  0x00,  0x00,  0xac,  0x02,  0x00,  0x00,  0xe8,  0x01,  0x00,  0x00,
  0x24,  0x01,  0x00,  0x00,  0x80,  0x00,  0x00,  0x00,  0x04,  0x00,  0x00,  0x00,
  0x02,  0xf9,  0xff,  0xff,  0x00,  0x00,  0x00,  0x01,  0x18,  0x00,  0x00,  0x00,
  0x20,  0x00,  0x00,  0x00,  0x3c,  0x00,  0x00,  0x00,  0x0b,  0x00,  0x00,  0x00,
  0x00,  0x00,  0x00,  0x09,  0x50,  0x00,  0x00,  0x00,  0x02,  0x00,  0x00,  0x00,
  0xff,  0xff,  0xff,  0xff,  0x01,  0x00,  0x00,  0x00,  0xec,  0xf8,  0xff,  0xff,
  0x08,  0x00,  0x00,  0x00,  0x10,  0x00,  0x00,  0x00,  0x01,  0x00,  0x00,  0x00,
  0x80,  0xff,  0xff,  0xff,  0xff,  0xff,  0xff,  0xff,  0x01,  0x00,  0x00,  0x00,
  0x00,  0x00,  0x80,  0x3b,  0x1b,  0x00,  0x00,  0x00,  0x53,  0x74,  0x61,  0x74,
  0x65,  0x66,  0x75,  0x6c,  0x50,  0x61,  0x72,  0x74,  0x69,  0x74,  0x69,  0x6f,
  0x6e,  0x65,  0x64,  0x43,  0x61,  0x6c,  0x6c,  0x5f,  0x31,  0x3a,  0x30,  0x00,
  0x02,  0x00,  0x00,  0x00,  0x01,  0x00,  0x00,  0x00,  0x01,  0x00,  0x00,  0x00,
  0x7a,  0xf9,  0xff,  0xff,  0x00,  0x00,  0x00,  0x01,  0x18,  0x00,  0x00,  0x00,
  0x20,  0x00,  0x00,  0x00,  0x40,  0x00,  0x00,  0x00,  0x0a,  0x00,  0x00,  0x00,
  0x00,  0x00,  0x00,  0x09,  0x78,  0x00,  0x00,  0x00,  0x02,  0x00,  0x00,  0x00,
  0xff,  0xff,  0xff,  0xff,  0x01,  0x00,  0x00,  0x00,  0x64,  0xf9,  0xff,  0xff,
  0x08,  0x00,  0x00,  0x00,  0x14,  0x00,  0x00,  0x00,  0x01,  0x00,  0x00,  0x00,
  0x6d,  0x00,  0x00,  0x00,  0x00,  0x00,  0x00,  0x00,  0x00,  0x00,  0x00,  0x00,
  0x01,  0x00,  0x00,  0x00,  0x08,  0xa8,  0x44,  0x3e,  0x3c,  0x00,  0x00,  0x00,
  0x73,  0x65,  0x71,  0x75,  0x65,  0x6e,  0x74,  0x69,  0x61,  0x6c,  0x5f,  0x31,
  0x5f,  0x31,  0x2f,  0x64,  0x65,  0x6e,  0x73,  0x65,  0x5f,  0x35,  0x5f,  0x31,
  0x2f,  0x4d,  0x61,  0x74,  0x4d,  0x75,  0x6c,  0x3b,  0x73,  0x65,  0x71,  0x75,
  0x65,  0x6e,  0x74,  0x69,  0x61,  0x6c,  0x5f,  0x31,  0x5f,  0x31,  0x2f,  0x64,
  0x65,  0x6e,  0x73,  0x65,  0x5f,  0x35,  0x5f,  0x31,  0x2f,  0x41,  0x64,  0x64,
  0x00,  0x00,  0x00,  0x00,  0x02,  0x00,  0x00,  0x00,  0x01,  0x00,  0x00,  0x00,
  0x01,  0x00,  0x00,  0x00,  0x1a,  0xfa,  0xff,  0xff,  0x00,  0x00,  0x00,  0x01,
  0x18,  0x00,  0x00,  0x00,  0x20,  0x00,  0x00,  0x00,  0x40,  0x00,  0x00,  0x00,
  0x09,  0x00,  0x00,  0x00,  0x00,  0x00,  0x00,  0x09,  0x98,  0x00,  0x00,  0x00,
  0x02,  0x00,  0x00,  0x00,  0xff,  0xff,  0xff,  0xff,  0x08,  0x00,  0x00,  0x00,
  0x04,  0xfa,  0xff,  0xff,  0x08,  0x00,  0x00,  0x00,  0x14,  0x00,  0x00,  0x00,
  0x01,  0x00,  0x00,  0x00,  0x80,  0xff,  0xff,  0xff,  0xff,  0xff,  0xff,  0xff,
  0x00,  0x00,  0x00,  0x00,  0x01,  0x00,  0x00,  0x00,  0x17,  0x30,  0x53,  0x3d,
  0x5e,  0x00,  0x00,  0x00,  0x73,  0x65,  0x71,  0x75,  0x65,  0x6e,  0x74,  0x69,
  0x61,  0x6c,  0x5f,  0x31,  0x5f,  0x31,  0x2f,  0x64,  0x65,  0x6e,  0x73,  0x65,
  0x5f,  0x34,  0x5f,  0x31,  0x2f,  0x4d,  0x61,  0x74,  0x4d,  0x75,  0x6c,  0x3b,
  0x73,  0x65,  0x71,  0x75,  0x65,  0x6e,  0x74,  0x69,  0x61,  0x6c,  0x5f,  0x31,
  0x5f,  0x31,  0x2f,  0x64,  0x65,  0x6e,  0x73,  0x65,  0x5f,  0x34,  0x5f,  0x31,
  0x2f,  0x52,  0x65,  0x6c,  0x75,  0x3b,  0x73,  0x65,  0x71,  0x75,  0x65,  0x6e,
  0x74,  0x69,  0x61,  0x6c,  0x5f,  0x31,  0x5f,  0x31,  0x2f,  0x64,  0x65,  0x6e,
  0x73,  0x65,  0x5f,  0x34,  0x5f,  0x31,  0x2f,  0x42,  0x69,  0x61,  0x73,  0x41,
  0x64,  0x64,  0x00,  0x00,  0x02,  0x00,  0x00,  0x00,  0x01,  0x00,  0x00,  0x00,
  0x08,  0x00,  0x00,  0x00,  0xda,  0xfa,  0xff,  0xff,  0x00,  0x00,  0x00,  0x01,
  0x18,  0x00,  0x00,  0x00,  0x20,  0x00,  0x00,  0x00,  0x40,  0x00,  0x00,  0x00,
  0x08,  0x00,  0x00,  0x00,  0x00,  0x00,  0x00,  0x09,  0x98,  0x00,  0x00,  0x00,
  0x02,  0x00,  0x00,  0x00,  0xff,  0xff,  0xff,  0xff,  0x10,  0x00,  0x00,  0x00,
  0xc4,  0xfa,  0xff,  0xff,  0x08,  0x00,  0x00,  0x00,  0x14,  0x00,  0x00,  0x00,
  0x01,  0x00,  0x00,  0x00,  0x80,  0xff,  0xff,  0xff,  0xff,  0xff,  0xff,  0xff,
  0x00,  0x00,  0x00,  0x00,  0x01,  0x00,  0x00,  0x00,  0xba,  0x90,  0xc4,  0x3c,
  0x5e,  0x00,  0x00,  0x00,  0x73,  0x65,  0x71,  0x75,  0x65,  0x6e,  0x74,  0x69,
  0x61,  0x6c,  0x5f,  0x31,  0x5f,  0x31,  0x2f,  0x64,  0x65,  0x6e,  0x73,  0x65,
  0x5f,  0x33,  0x5f,  0x31,  0x2f,  0x4d,  0x61,  0x74,  0x4d,  0x75,  0x6c,  0x3b,
  0x73,  0x65,  0x71,  0x75,  0x65,  0x6e,  0x74,  0x69,  0x61,  0x6c,  0x5f,  0x31,
  0x5f,  0x31,  0x2f,  0x64,  0x65,  0x6e,  0x73,  0x65,  0x5f,  0x33,  0x5f,  0x31,
  0x2f,  0x52,  0x65,  0x6c,  0x75,  0x3b,  0x73,  0x65,  0x71,  0x75,  0x65,  0x6e,
  0x74,  0x69,  0x61,  0x6c,  0x5f,  0x31,  0x5f,  0x31,  0x2f,  0x64,  0x65,  0x6e,
  0x73,  0x65,  0x5f,  0x33,  0x5f,  0x31,  0x2f,  0x42,  0x69,  0x61,  0x73,  0x41,
  0x64,  0x64,  0x00,  0x00,  0x02,  0x00,  0x00,  0x00,  0x01,  0x00,  0x00,  0x00,
  0x10,  0x00,  0x00,  0x00,  0x0e,  0xfc,  0xff,  0xff,  0x00,  0x00,  0x00,  0x01,
  0x14,  0x00,  0x00,  0x00,  0xe8,  0x00,  0x00,  0x00,  0x07,  0x00,  0x00,  0x00,
  0x00,  0x00,  0x00,  0x09,  0xf4,  0x00,  0x00,  0x00,  0x74,  0xfb,  0xff,  0xff,
  0x08,  0x00,  0x00,  0x00,  0x8c,  0x00,  0x00,  0x00,  0x10,  0x00,  0x00,  0x00,
  0x00,  0x00,  0x00,  0x00,  0x00,  0x00,  0x00,  0x00,  0x00,  0x00,  0x00,  0x00,
  0x00,  0x00,  0x00,  0x00,  0x00,  0x00,  0x00,  0x00,  0x00,  0x00,  0x00,  0x00,
  0x00,  0x00,  0x00,  0x00,  0x00,  0x00,  0x00,  0x00,  0x00,  0x00,  0x00,  0x00,
  0x00,  0x00,  0x00,  0x00,  0x00,  0x00,  0x00,  0x00,  0x00,  0x00,  0x00,  0x00,
  0x00,  0x00,  0x00,  0x00,  0x00,  0x00,  0x00,  0x00,  0x00,  0x00,  0x00,  0x00,
  0x00,  0x00,  0x00,  0x00,  0x00,  0x00,  0x00,  0x00,  0x00,  0x00,  0x00,  0x00,
  0x00,  0x00,  0x00,  0x00,  0x00,  0x00,  0x00,  0x00,  0x00,  0x00,  0x00,  0x00,
  0x00,  0x00,  0x00,  0x00,  0x00,  0x00,  0x00,  0x00,  0x00,  0x00,  0x00,  0x00,
  0x00,  0x00,  0x00,  0x00,  0x00,  0x00,  0x00,  0x00,  0x00,  0x00,  0x00,  0x00,
  0x00,  0x00,  0x00,  0x00,  0x00,  0x00,  0x00,  0x00,  0x00,  0x00,  0x00,  0x00,
  0x00,  0x00,  0x00,  0x00,  0x00,  0x00,  0x00,  0x00,  0x00,  0x00,  0x00,  0x00,
  0x10,  0x00,  0x00,  0x00,  0x16,  0x98,  0x8b,  0x3b,  0x4e,  0xe1,  0x60,  0x3b,
  0x41,  0x6c,  0x9e,  0x3b,  0xf7,  0xc6,  0x4d,  0x3b,  0x2e,  0xb7,  0x74,  0x3b,
  0x91,  0xd1,  0xbf,  0x3b,  0x12,  0x03,  0x8e,  0x3b,  0x72,  0x37,  0xe2,  0x3b,
  0x65,  0xe2,  0xb7,  0x3b,  0xe3,  0x3a,  0x9e,  0x3b,  0x15,  0x92,  0x7e,  0x3b,
  0x74,  0xff,  0x9c,  0x3b,  0x43,  0xf1,  0x8d,  0x3b,  0xfc,  0xca,  0x82,  0x3b,
  0x00,  0x70,  0xb8,  0x3b,  0x58,  0x64,  0x80,  0x3b,  0x12,  0x00,  0x00,  0x00,
  0x74,  0x66,  0x6c,  0x2e,  0x70,  0x73,  0x65,  0x75,  0x64,  0x6f,  0x5f,  0x71,
  0x63,  0x6f,  0x6e,  0x73,  0x74,  0x35,  0x00,  0x00,  0x02,  0x00,  0x00,  0x00,
  0x10,  0x00,  0x00,  0x00,  0x0c,  0x00,  0x00,  0x00,  0x26,  0xfd,  0xff,  0xff,
  0x00,  0x00,  0x00,  0x01,  0x14,  0x00,  0x00,  0x00,  0xe4,  0x00,  0x00,  0x00,
  0x06,  0x00,  0x00,  0x00,  0x00,  0x00,  0x00,  0x02,  0xf0,  0x00,  0x00,  0x00,
  0x8c,  0xfc,  0xff,  0xff,  0x08,  0x00,  0x00,  0x00,  0x88,  0x00,  0x00,  0x00,
  0x10,  0x00,  0x00,  0x00,  0x00,  0x00,  0x00,  0x00,  0x00,  0x00,  0x00,  0x00,
  0x00,  0x00,  0x00,  0x00,  0x00,  0x00,  0x00,  0x00,  0x00,  0x00,  0x00,  0x00,
  0x00,  0x00,  0x00,  0x00,  0x00,  0x00,  0x00,  0x00,  0x00,  0x00,  0x00,  0x00,
  0x00,  0x00,  0x00,  0x00,  0x00,  0x00,  0x00,  0x00,  0x00,  0x00,  0x00,  0x00,
  0x00,  0x00,  0x00,  0x00,  0x00,  0x00,  0x00,  0x00,  0x00,  0x00,  0x00,  0x00,
  0x00,  0x00,  0x00,  0x00,  0x00,  0x00,  0x00,  0x00,  0x00,  0x00,  0x00,  0x00,
  0x00,  0x00,  0x00,  0x00,  0x00,  0x00,  0x00,  0x00,  0x00,  0x00,  0x00,  0x00,
  0x00,  0x00,  0x00,  0x00,  0x00,  0x00,  0x00,  0x00,  0x00,  0x00,  0x00,  0x00,
  0x00,  0x00,  0x00,  0x00,  0x00,  0x00,  0x00,  0x00,  0x00,  0x00,  0x00,  0x00,
  0x00,  0x00,  0x00,  0x00,  0x00,  0x00,  0x00,  0x00,  0x00,  0x00,  0x00,  0x00,
  0x00,  0x00,  0x00,  0x00,  0x00,  0x00,  0x00,  0x00,  0x00,  0x00,  0x00,  0x00,
  0x10,  0x00,  0x00,  0x00,  0xbf,  0xfb,  0xa2,  0x38,  0x96,  0x47,  0x83,  0x38,
  0x8b,  0xf7,  0xb8,  0x38,  0x71,  0x41,  0x70,  0x38,  0xed,  0xdb,  0x8e,  0x38,
  0x50,  0xf5,  0xdf,  0x38,  0x72,  0xce,  0xa5,  0x38,  0x52,  0x0f,  0x04,  0x39,
  0xd0,  0xb1,  0xd6,  0x38,  0xe8,  0xbd,  0xb8,  0x38,  0xbd,  0x9c,  0x94,  0x38,
  0x9f,  0x4d,  0xb7,  0x38,  0xa7,  0xb9,  0xa5,  0x38,  0x22,  0xb5,  0x98,  0x38,
  0x25,  0x57,  0xd7,  0x38,  0x82,  0xe7,  0x95,  0x38,  0x12,  0x00,  0x00,  0x00,
  0x74,  0x66,  0x6c,  0x2e,  0x70,  0x73,  0x65,  0x75,  0x64,  0x6f,  0x5f,  0x71,
  0x63,  0x6f,  0x6e,  0x73,  0x74,  0x34,  0x00,  0x00,  0x01,  0x00,  0x00,  0x00,
  0x10,  0x00,  0x00,  0x00,  0x36,  0xfe,  0xff,  0xff,  0x00,  0x00,  0x00,  0x01,
  0x14,  0x00,  0x00,  0x00,  0x88,  0x00,  0x00,  0x00,  0x05,  0x00,  0x00,  0x00,
  0x00,  0x00,  0x00,  0x09,  0x94,  0x00,  0x00,  0x00,  0x9c,  0xfd,  0xff,  0xff,
  0x08,  0x00,  0x00,  0x00,  0x4c,  0x00,  0x00,  0x00,  0x08,  0x00,  0x00,  0x00,
  0x00,  0x00,  0x00,  0x00,  0x00,  0x00,  0x00,  0x00,  0x00,  0x00,  0x00,  0x00,
  0x00,  0x00,  0x00,  0x00,  0x00,  0x00,  0x00,  0x00,  0x00,  0x00,  0x00,  0x00,
  0x00,  0x00,  0x00,  0x00,  0x00,  0x00,  0x00,  0x00,  0x00,  0x00,  0x00,  0x00,
  0x00,  0x00,  0x00,  0x00,  0x00,  0x00,  0x00,  0x00,  0x00,  0x00,  0x00,  0x00,
  0x00,  0x00,  0x00,  0x00,  0x00,  0x00,  0x00,  0x00,  0x00,  0x00,  0x00,  0x00,
  0x00,  0x00,  0x00,  0x00,  0x00,  0x00,  0x00,  0x00,  0x08,  0x00,  0x00,  0x00,
  0x9f,  0xd0,  0xad,  0x3b,  0xf6,  0x38,  0xe9,  0x3b,  0x6c,  0xc8,  0x59,  0x3b,
  0xd2,  0x8f,  0x40,  0x3c,  0x5e,  0x7e,  0x05,  0x3c,  0x24,  0xc8,  0x94,  0x3b,
  0x6c,  0x83,  0xf8,  0x3b,  0x8c,  0x0d,  0xed,  0x3b,  0x12,  0x00,  0x00,  0x00,
  0x74,  0x66,  0x6c,  0x2e,  0x70,  0x73,  0x65,  0x75,  0x64,  0x6f,  0x5f,  0x71,
  0x63,  0x6f,  0x6e,  0x73,  0x74,  0x33,  0x00,  0x00,  0x02,  0x00,  0x00,  0x00,
  0x08,  0x00,  0x00,  0x00,  0x10,  0x00,  0x00,  0x00,  0xee,  0xfe,  0xff,  0xff,
  0x00,  0x00,  0x00,  0x01,  0x14,  0x00,  0x00,  0x00,  0x84,  0x00,  0x00,  0x00,
  0x04,  0x00,  0x00,  0x00,  0x00,  0x00,  0x00,  0x02,  0x90,  0x00,  0x00,  0x00,
  0x54,  0xfe,  0xff,  0xff,  0x08,  0x00,  0x00,  0x00,  0x48,  0x00,  0x00,  0x00,
  0x08,  0x00,  0x00,  0x00,  0x00,  0x00,  0x00,  0x00,  0x00,  0x00,  0x00,  0x00,
  0x00,  0x00,  0x00,  0x00,  0x00,  0x00,  0x00,  0x00,  0x00,  0x00,  0x00,  0x00,
  0x00,  0x00,  0x00,  0x00,  0x00,  0x00,  0x00,  0x00,  0x00,  0x00,  0x00,  0x00,
  0x00,  0x00,  0x00,  0x00,  0x00,  0x00,  0x00,  0x00,  0x00,  0x00,  0x00,  0x00,
  0x00,  0x00,  0x00,  0x00,  0x00,  0x00,  0x00,  0x00,  0x00,  0x00,  0x00,  0x00,
  0x00,  0x00,  0x00,  0x00,  0x00,  0x00,  0x00,  0x00,  0x08,  0x00,  0x00,  0x00,
  0xfd,  0x75,  0x05,  0x39,  0x76,  0x13,  0x33,  0x39,  0x92,  0x38,  0xa7,  0x38,
  0xfa,  0xda,  0x93,  0x39,  0x70,  0x00,  0x4d,  0x39,  0xb0,  0x7a,  0xe4,  0x38,
  0x1d,  0xd1,  0x3e,  0x39,  0x63,  0x04,  0x36,  0x39,  0x12,  0x00,  0x00,  0x00,
  0x74,  0x66,  0x6c,  0x2e,  0x70,  0x73,  0x65,  0x75,  0x64,  0x6f,  0x5f,  0x71,
  0x63,  0x6f,  0x6e,  0x73,  0x74,  0x32,  0x00,  0x00,  0x01,  0x00,  0x00,  0x00,
  0x08,  0x00,  0x00,  0x00,  0x9e,  0xff,  0xff,  0xff,  0x00,  0x00,  0x00,  0x01,
  0x14,  0x00,  0x00,  0x00,  0x30,  0x00,  0x00,  0x00,  0x03,  0x00,  0x00,  0x00,
  0x00,  0x00,  0x00,  0x09,  0x3c,  0x00,  0x00,  0x00,  0x04,  0xff,  0xff,  0xff,
  0x08,  0x00,  0x00,  0x00,  0x10,  0x00,  0x00,  0x00,  0x01,  0x00,  0x00,  0x00,
  0x00,  0x00,  0x00,  0x00,  0x00,  0x00,  0x00,  0x00,  0x01,  0x00,  0x00,  0x00,
  0xcf,  0xb6,  0x24,  0x3c,  0x12,  0x00,  0x00,  0x00,  0x74,  0x66,  0x6c,  0x2e,
  0x70,  0x73,  0x65,  0x75,  0x64,  0x6f,  0x5f,  0x71,  0x63,  0x6f,  0x6e,  0x73,
  0x74,  0x31,  0x00,  0x00,  0x02,  0x00,  0x00,  0x00,  0x01,  0x00,  0x00,  0x00,
  0x08,  0x00,  0x00,  0x00,  0x00,  0x00,  0x16,  0x00,  0x1c,  0x00,  0x18,  0x00,
  0x17,  0x00,  0x10,  0x00,  0x0c,  0x00,  0x08,  0x00,  0x00,  0x00,  0x00,  0x00,
  0x00,  0x00,  0x07,  0x00,  0x16,  0x00,  0x00,  0x00,  0x00,  0x00,  0x00,  0x01,
  0x14,  0x00,  0x00,  0x00,  0x30,  0x00,  0x00,  0x00,  0x02,  0x00,  0x00,  0x00,
  0x00,  0x00,  0x00,  0x02,  0x3c,  0x00,  0x00,  0x00,  0x7c,  0xff,  0xff,  0xff,
  0x08,  0x00,  0x00,  0x00,  0x10,  0x00,  0x00,  0x00,  0x01,  0x00,  0x00,  0x00,
  0x00,  0x00,  0x00,  0x00,  0x00,  0x00,  0x00,  0x00,  0x01,  0x00,  0x00,  0x00,
  0x9e,  0xe1,  0x07,  0x3a,  0x11,  0x00,  0x00,  0x00,  0x74,  0x66,  0x6c,  0x2e,
  0x70,  0x73,  0x65,  0x75,  0x64,  0x6f,  0x5f,  0x71,  0x63,  0x6f,  0x6e,  0x73,
  0x74,  0x00,  0x00,  0x00,  0x01,  0x00,  0x00,  0x00,  0x01,  0x00,  0x00,  0x00,
  0x00,  0x00,  0x16,  0x00,  0x20,  0x00,  0x1c,  0x00,  0x1b,  0x00,  0x14,  0x00,
  0x10,  0x00,  0x0c,  0x00,  0x00,  0x00,  0x00,  0x00,  0x08,  0x00,  0x07,  0x00,
  0x16,  0x00,  0x00,  0x00,  0x00,  0x00,  0x00,  0x01,  0x18,  0x00,  0x00,  0x00,
  0x2c,  0x00,  0x00,  0x00,  0x4c,  0x00,  0x00,  0x00,  0x01,  0x00,  0x00,  0x00,
  0x00,  0x00,  0x00,  0x09,  0x68,  0x00,  0x00,  0x00,  0x02,  0x00,  0x00,  0x00,
  0xff,  0xff,  0xff,  0xff,  0x0c,  0x00,  0x00,  0x00,  0x0c,  0x00,  0x0c,  0x00,
  0x00,  0x00,  0x00,  0x00,  0x08,  0x00,  0x04,  0x00,  0x0c,  0x00,  0x00,  0x00,
  0x08,  0x00,  0x00,  0x00,  0x14,  0x00,  0x00,  0x00,  0x01,  0x00,  0x00,  0x00,
  0x0d,  0x00,  0x00,  0x00,  0x00,  0x00,  0x00,  0x00,  0x00,  0x00,  0x00,  0x00,
  0x01,  0x00,  0x00,  0x00,  0x5a,  0x72,  0x95,  0x3c,  0x20,  0x00,  0x00,  0x00,
  0x73,  0x65,  0x72,  0x76,  0x69,  0x6e,  0x67,  0x5f,  0x64,  0x65,  0x66,  0x61,
  0x75,  0x6c,  0x74,  0x5f,  0x6b,  0x65,  0x72,  0x61,  0x73,  0x5f,  0x74,  0x65,
  0x6e,  0x73,  0x6f,  0x72,  0x5f,  0x34,  0x3a,  0x30,  0x00,  0x00,  0x00,  0x00,
  0x02,  0x00,  0x00,  0x00,  0x01,  0x00,  0x00,  0x00,  0x0c,  0x00,  0x00,  0x00,
  0x02,  0x00,  0x00,  0x00,  0x24,  0x00,  0x00,  0x00,  0x04,  0x00,  0x00,  0x00,
  0xf0,  0xff,  0xff,  0xff,  0x0e,  0x00,  0x00,  0x00,  0x02,  0x00,  0x00,  0x00,
  0x00,  0x00,  0x00,  0x0e,  0x0c,  0x00,  0x10,  0x00,  0x0f,  0x00,  0x00,  0x00,
  0x08,  0x00,  0x04,  0x00,  0x0c,  0x00,  0x00,  0x00,  0x09,  0x00,  0x00,  0x00,
  0x04,  0x00,  0x00,  0x00,  0x00,  0x00,  0x00,  0x09,
};
const int g_model_len = sizeof(g_model);
